const unsigned char model_tflite[] = {
  0x1c, 0x00, 0x00, 0x00, 0x54, 0x46, 0x4c, 0x33, 0x14, 0x00, 0x20, 0x00,
  0x1c, 0x00, 0x18, 0x00, 0x14, 0x00, 0x10, 0x00, 0x0c, 0x00, 0x00, 0x00,
  0x08, 0x00, 0x04, 0x00, 0x14, 0x00, 0x00, 0x00, 0x1c, 0x00, 0x00, 0x00,
  0x8c, 0x00, 0x00, 0x00, 0xe4, 0x00, 0x00, 0x00, 0x10, 0x0c, 0x00, 0x00,
  0x20, 0x0c, 0x00, 0x00, 0xb4, 0x11, 0x00, 0x00, 0x03, 0x00, 0x00, 0x00,
  0x01, 0x00, 0x00, 0x00, 0x04, 0x00, 0x00, 0x00, 0xa2, 0xf3, 0xff, 0xff,
  0x0c, 0x00, 0x00, 0x00, 0x1c, 0x00, 0x00, 0x00, 0x3c, 0x00, 0x00, 0x00,
  0x0f, 0x00, 0x00, 0x00, 0x73, 0x65, 0x72, 0x76, 0x69, 0x6e, 0x67, 0x5f,
  0x64, 0x65, 0x66, 0x61, 0x75, 0x6c, 0x74, 0x00, 0x01, 0x00, 0x00, 0x00,
  0x04, 0x00, 0x00, 0x00, 0x90, 0xff, 0xff, 0xff, 0x0a, 0x00, 0x00, 0x00,
  0x04, 0x00, 0x00, 0x00, 0x08, 0x00, 0x00, 0x00, 0x6f, 0x75, 0x74, 0x70,
  0x75, 0x74, 0x5f, 0x30, 0x00, 0x00, 0x00, 0x00, 0x01, 0x00, 0x00, 0x00,
  0x04, 0x00, 0x00, 0x00, 0xb2, 0xf4, 0xff, 0xff, 0x04, 0x00, 0x00, 0x00,
  0x0c, 0x00, 0x00, 0x00, 0x6b, 0x65, 0x72, 0x61, 0x73, 0x5f, 0x74, 0x65,
  0x6e, 0x73, 0x6f, 0x72, 0x00, 0x00, 0x00, 0x00, 0x02, 0x00, 0x00, 0x00,
  0x34, 0x00, 0x00, 0x00, 0x04, 0x00, 0x00, 0x00, 0xdc, 0xff, 0xff, 0xff,
  0x0d, 0x00, 0x00, 0x00, 0x04, 0x00, 0x00, 0x00, 0x13, 0x00, 0x00, 0x00,
  0x43, 0x4f, 0x4e, 0x56, 0x45, 0x52, 0x53, 0x49, 0x4f, 0x4e, 0x5f, 0x4d,
  0x45, 0x54, 0x41, 0x44, 0x41, 0x54, 0x41, 0x00, 0x08, 0x00, 0x0c, 0x00,
  0x08, 0x00, 0x04, 0x00, 0x08, 0x00, 0x00, 0x00, 0x0c, 0x00, 0x00, 0x00,
  0x04, 0x00, 0x00, 0x00, 0x13, 0x00, 0x00, 0x00, 0x6d, 0x69, 0x6e, 0x5f,
  0x72, 0x75, 0x6e, 0x74, 0x69, 0x6d, 0x65, 0x5f, 0x76, 0x65, 0x72, 0x73,
  0x69, 0x6f, 0x6e, 0x00, 0x0e, 0x00, 0x00, 0x00, 0x28, 0x0b, 0x00, 0x00,
  0x20, 0x0b, 0x00, 0x00, 0xd0, 0x0a, 0x00, 0x00, 0xb8, 0x02, 0x00, 0x00,
  0xa4, 0x02, 0x00, 0x00, 0x54, 0x02, 0x00, 0x00, 0xc4, 0x01, 0x00, 0x00,
  0xb4, 0x00, 0x00, 0x00, 0xac, 0x00, 0x00, 0x00, 0xa4, 0x00, 0x00, 0x00,
  0x9c, 0x00, 0x00, 0x00, 0x94, 0x00, 0x00, 0x00, 0x74, 0x00, 0x00, 0x00,
  0x04, 0x00, 0x00, 0x00, 0x66, 0xf5, 0xff, 0xff, 0x04, 0x00, 0x00, 0x00,
  0x60, 0x00, 0x00, 0x00, 0x0c, 0x00, 0x00, 0x00, 0x08, 0x00, 0x0e, 0x00,
  0x08, 0x00, 0x04, 0x00, 0x08, 0x00, 0x00, 0x00, 0x10, 0x00, 0x00, 0x00,
  0x28, 0x00, 0x00, 0x00, 0x00, 0x00, 0x06, 0x00, 0x08, 0x00, 0x04, 0x00,
  0x06, 0x00, 0x00, 0x00, 0x04, 0x00, 0x00, 0x00, 0x01, 0x00, 0x00, 0x00,
  0xea, 0x03, 0x00, 0x00, 0x0c, 0x00, 0x18, 0x00, 0x14, 0x00, 0x10, 0x00,
  0x0c, 0x00, 0x04, 0x00, 0x0c, 0x00, 0x00, 0x00, 0xf4, 0xb0, 0x28, 0xee,
  0x15, 0x85, 0x5c, 0x27, 0x02, 0x00, 0x00, 0x00, 0x02, 0x00, 0x00, 0x00,
  0x04, 0x00, 0x00, 0x00, 0x06, 0x00, 0x00, 0x00, 0x32, 0x2e, 0x31, 0x39,
  0x2e, 0x30, 0x00, 0x00, 0xd2, 0xf5, 0xff, 0xff, 0x04, 0x00, 0x00, 0x00,
  0x10, 0x00, 0x00, 0x00, 0x31, 0x2e, 0x31, 0x34, 0x2e, 0x30, 0x00, 0x00,
  0x00, 0x00, 0x00, 0x00, 0x00, 0x00, 0x00, 0x00, 0x20, 0xf0, 0xff, 0xff,
  0x24, 0xf0, 0xff, 0xff, 0x28, 0xf0, 0xff, 0xff, 0x2c, 0xf0, 0xff, 0xff,
  0xfe, 0xf5, 0xff, 0xff, 0x04, 0x00, 0x00, 0x00, 0x00, 0x01, 0x00, 0x00,
  0x0a, 0xe0, 0x69, 0xbe, 0x20, 0x89, 0xf6, 0x3d, 0xe4, 0xfe, 0x93, 0x3e,
  0x9d, 0xe3, 0x45, 0x3e, 0xad, 0x58, 0xa4, 0x3e, 0x30, 0x97, 0x13, 0xbf,
  0x88, 0x79, 0x3b, 0xbe, 0xdf, 0x5e, 0x6d, 0x3f, 0x1b, 0x69, 0x0f, 0x3f,
  0x10, 0xe7, 0x2e, 0xbd, 0xae, 0xc2, 0x77, 0x3e, 0x91, 0x7e, 0x4d, 0xbe,
  0x18, 0x86, 0x1d, 0xbf, 0xad, 0xdb, 0x0f, 0x3f, 0xa2, 0xcc, 0x97, 0xbe,
  0x70, 0x48, 0xc0, 0xbe, 0x62, 0x59, 0x24, 0xbe, 0x0c, 0xc8, 0x9a, 0xbe,
  0x3f, 0xa0, 0x71, 0x3c, 0x3f, 0xaa, 0x87, 0xbd, 0xaa, 0xb2, 0xa4, 0xbe,
  0x96, 0x92, 0x3c, 0xbe, 0xd6, 0xbb, 0xca, 0xbe, 0xbc, 0x2c, 0x19, 0x3d,
  0xa8, 0x70, 0x95, 0xbe, 0x96, 0x6e, 0x79, 0xbe, 0x1e, 0x81, 0xb6, 0xbe,
  0x18, 0x10, 0x45, 0xbd, 0x41, 0xa8, 0x62, 0x3e, 0x37, 0x06, 0x39, 0x3f,
  0x8c, 0x51, 0x4c, 0xbf, 0x09, 0xd1, 0xfa, 0xbb, 0x30, 0x40, 0x81, 0xbd,
  0x8e, 0x99, 0x5e, 0xbe, 0xf2, 0x05, 0xca, 0x3d, 0x32, 0x2c, 0xb8, 0x3e,
  0x89, 0xaa, 0x3a, 0x3e, 0x10, 0xdd, 0x66, 0xbf, 0x0e, 0x66, 0x80, 0xbe,
  0x1c, 0x16, 0xac, 0xbe, 0x99, 0x70, 0x56, 0x3d, 0xe4, 0xe3, 0x5e, 0xbf,
  0xa7, 0xc5, 0x74, 0xbe, 0x83, 0xe4, 0x96, 0xbe, 0x0b, 0xa3, 0x19, 0x3f,
  0xfc, 0x65, 0x10, 0x3d, 0x87, 0xb2, 0x28, 0x3e, 0x49, 0xd5, 0x25, 0xbe,
  0x08, 0x64, 0x3c, 0x3e, 0x35, 0xf4, 0x48, 0x3e, 0x67, 0x8f, 0x80, 0xbf,
  0x2f, 0xc3, 0xe2, 0x3e, 0xdb, 0x7a, 0x06, 0x3b, 0x6b, 0xe7, 0xb6, 0x3e,
  0x26, 0x79, 0xbf, 0xbe, 0xc7, 0xfc, 0xa8, 0xbe, 0x8f, 0x62, 0x18, 0x3f,
  0xc5, 0x94, 0xcf, 0xbe, 0x35, 0xc5, 0x9c, 0x3e, 0x97, 0x70, 0xc7, 0x3e,
  0xa4, 0x88, 0x04, 0xbe, 0x2c, 0xd1, 0x93, 0xbe, 0x37, 0x35, 0x97, 0xbe,
  0x27, 0x8e, 0x17, 0xbf, 0x0a, 0xf7, 0xff, 0xff, 0x04, 0x00, 0x00, 0x00,
  0x80, 0x00, 0x00, 0x00, 0xe2, 0x6a, 0x57, 0x3d, 0x25, 0x9a, 0x8d, 0xbe,
  0x94, 0xd6, 0xf2, 0x3d, 0xe3, 0xc6, 0xe5, 0xbe, 0xc2, 0x42, 0x9f, 0xbe,
  0x11, 0x91, 0x26, 0x3c, 0xd4, 0xe0, 0x85, 0xbd, 0x00, 0x00, 0x00, 0x00,
  0x00, 0x00, 0x00, 0x00, 0x32, 0xac, 0x67, 0xbc, 0x00, 0x00, 0x00, 0x00,
  0xd5, 0xe0, 0x10, 0xbd, 0x00, 0x00, 0x00, 0x00, 0x00, 0x00, 0x00, 0x00,
  0xae, 0xdb, 0x0a, 0xbf, 0x40, 0x29, 0xb0, 0x3e, 0x00, 0x00, 0x00, 0x00,
  0xa9, 0x65, 0x7a, 0xbe, 0x0d, 0x63, 0x99, 0x3e, 0x00, 0x00, 0x00, 0x00,
  0x77, 0x97, 0xbc, 0x3e, 0x00, 0x00, 0x00, 0x00, 0x14, 0x70, 0xbb, 0xbe,
  0x48, 0x52, 0x16, 0x3d, 0xb1, 0x5b, 0x56, 0xbe, 0x1e, 0xd7, 0x3b, 0x3e,
  0x5e, 0x5d, 0x50, 0xbe, 0x00, 0x00, 0x00, 0x00, 0x17, 0xe2, 0x13, 0xbe,
  0x76, 0xfb, 0xc5, 0xbe, 0x00, 0x00, 0x00, 0x00, 0x95, 0xe7, 0xd0, 0x3e,
  0x96, 0xf7, 0xff, 0xff, 0x04, 0x00, 0x00, 0x00, 0x40, 0x00, 0x00, 0x00,
  0xdc, 0x39, 0x2f, 0x39, 0xca, 0x14, 0xd9, 0xbc, 0x34, 0xf7, 0x89, 0x3e,
  0xed, 0xce, 0x70, 0x3e, 0x18, 0xd6, 0x67, 0x3e, 0xa5, 0x37, 0x66, 0x3e,
  0x3c, 0x27, 0xee, 0xbb, 0xd6, 0x0c, 0x56, 0x3e, 0x72, 0xa3, 0xe0, 0xbb,
  0xc2, 0x9d, 0x87, 0x3e, 0x59, 0xdd, 0xdc, 0xba, 0x6d, 0xd3, 0x74, 0x3e,
  0x8d, 0xd3, 0x2e, 0xbd, 0x51, 0x8a, 0x81, 0x3e, 0x6c, 0x41, 0x86, 0x3e,
  0x4a, 0x4c, 0x8d, 0xbb, 0xe2, 0xf7, 0xff, 0xff, 0x04, 0x00, 0x00, 0x00,
  0x04, 0x00, 0x00, 0x00, 0xf2, 0x05, 0x87, 0xbe, 0xf2, 0xf7, 0xff, 0xff,
  0x04, 0x00, 0x00, 0x00, 0x00, 0x08, 0x00, 0x00, 0xb1, 0xd8, 0xf1, 0x3e,
  0x7c, 0x90, 0x33, 0x3f, 0xa8, 0x5f, 0x1b, 0x3f, 0x51, 0xf3, 0xa3, 0x3f,
  0x3f, 0xd0, 0x30, 0x40, 0xd2, 0xf8, 0xf2, 0xbd, 0xec, 0xaa, 0xc6, 0x3f,
  0xbc, 0x99, 0x97, 0xbd, 0x70, 0x71, 0x7b, 0xbd, 0x7a, 0x96, 0x09, 0xbc,
  0xe7, 0x3f, 0x14, 0xbe, 0x74, 0xa4, 0xa3, 0xbe, 0xf8, 0x53, 0x70, 0xbe,
  0xcd, 0x03, 0xae, 0x3e, 0xf2, 0x58, 0x18, 0x40, 0x14, 0xef, 0x44, 0x40,
  0xe2, 0x5e, 0x9e, 0xbe, 0xbf, 0x59, 0x4c, 0x3f, 0x6b, 0xf1, 0x06, 0x40,
  0x80, 0x7f, 0x7a, 0x3d, 0xf7, 0x2d, 0x07, 0x40, 0x12, 0xf8, 0x9a, 0xbe,
  0x88, 0x3b, 0x1f, 0x40, 0xaa, 0x89, 0x05, 0xbe, 0x0f, 0x01, 0x37, 0x3f,
  0xa8, 0x67, 0x0c, 0x40, 0x19, 0x6f, 0x48, 0x3f, 0xc0, 0x7d, 0x96, 0xbe,
  0xdc, 0x4c, 0xfa, 0x3f, 0x61, 0xfd, 0x45, 0x3f, 0xc0, 0xe7, 0xa2, 0xbc,
  0x2f, 0x92, 0x3c, 0x40, 0x6d, 0xc2, 0x46, 0xbd, 0x3f, 0xbd, 0x51, 0xbe,
  0x8b, 0xfc, 0xb4, 0xbe, 0xc6, 0x45, 0x7a, 0xbe, 0x74, 0xff, 0x1e, 0x3d,
  0xdd, 0x69, 0x47, 0xbd, 0xbc, 0x29, 0x82, 0xbe, 0x90, 0x2a, 0x60, 0xbd,
  0xab, 0x35, 0x71, 0xbe, 0xdb, 0x54, 0x9d, 0xbe, 0xf7, 0xa5, 0x21, 0xbe,
  0x00, 0x10, 0x90, 0xba, 0x80, 0x51, 0x3e, 0xbd, 0xd0, 0x13, 0x9e, 0xbd,
  0xd3, 0x06, 0x6c, 0x3d, 0x50, 0x95, 0x86, 0xbe, 0x04, 0x3f, 0xec, 0xbd,
  0x64, 0x61, 0x83, 0xbe, 0x5c, 0xda, 0x3e, 0xbe, 0x6e, 0xd8, 0x75, 0x3e,
  0x95, 0x11, 0x8a, 0xbe, 0x01, 0x88, 0x1c, 0xbe, 0xca, 0xef, 0xac, 0xbe,
  0x63, 0x57, 0x33, 0xbd, 0x89, 0x0c, 0x81, 0xbe, 0x35, 0x6b, 0xb0, 0xbe,
  0x34, 0x43, 0xb1, 0xbd, 0x67, 0x00, 0x92, 0x3e, 0x12, 0xac, 0x28, 0xbe,
  0x1e, 0xfc, 0x9e, 0xbe, 0xc0, 0xad, 0x8b, 0xbb, 0x28, 0x3d, 0x39, 0x3d,
  0x8d, 0x67, 0x17, 0x3d, 0xa4, 0x6a, 0x58, 0xbf, 0xb9, 0x48, 0xbf, 0x3c,
  0x63, 0x83, 0x8c, 0xbf, 0x94, 0xba, 0x15, 0xc0, 0x30, 0x39, 0xe7, 0x3e,
  0xdf, 0x44, 0xc3, 0xbf, 0xcf, 0x3c, 0xad, 0x3e, 0x68, 0xa6, 0x4a, 0x3d,
  0x2a, 0x5f, 0x4d, 0x3e, 0x2c, 0xbe, 0xef, 0x3d, 0x91, 0xe8, 0xad, 0x3d,
  0x94, 0x1a, 0xac, 0xbd, 0xb8, 0x3d, 0xf8, 0xbd, 0x7e, 0x99, 0xb4, 0xbf,
  0x3d, 0x4f, 0x0a, 0xc0, 0xda, 0xa1, 0xae, 0xbe, 0xcd, 0x65, 0xf8, 0xbe,
  0xc2, 0x1e, 0xe3, 0xbf, 0x22, 0xfa, 0x18, 0x3e, 0xbc, 0x51, 0x08, 0xc0,
  0x2d, 0x02, 0xb3, 0x3e, 0x22, 0x18, 0x02, 0xc0, 0xa8, 0x47, 0xa8, 0x3e,
  0xaf, 0x12, 0xbb, 0xbe, 0xce, 0x00, 0xbb, 0xbf, 0x73, 0xe2, 0x23, 0xbf,
  0xdd, 0x85, 0x8f, 0xbe, 0xd9, 0xf3, 0xd3, 0xbf, 0x7d, 0x5f, 0xa8, 0xbe,
  0xe8, 0xa1, 0x1c, 0xbd, 0x9b, 0x78, 0x0f, 0xc0, 0x01, 0x5a, 0xb0, 0xbe,
  0x82, 0xc3, 0xf2, 0xbe, 0xfb, 0x9a, 0x5c, 0xbe, 0x42, 0x01, 0x7c, 0xbf,
  0xd3, 0x9b, 0xfc, 0xbf, 0xcb, 0x28, 0xc6, 0xbd, 0x3c, 0x08, 0xb4, 0xbf,
  0x9a, 0x74, 0x0c, 0xbe, 0x56, 0xa4, 0x32, 0x3e, 0x5c, 0xb5, 0x1e, 0xbe,
  0xee, 0x90, 0x92, 0xbe, 0x53, 0x11, 0xe3, 0xbd, 0x4b, 0xa3, 0x4f, 0xbe,
  0x9c, 0xde, 0x28, 0xbe, 0x37, 0xf1, 0xf9, 0xbf, 0x7c, 0xc1, 0x07, 0xc0,
  0xec, 0x0c, 0x36, 0xbe, 0x16, 0x57, 0x88, 0xbe, 0x28, 0xde, 0xd4, 0xbf,
  0x48, 0x5c, 0xda, 0x3d, 0xf5, 0xe4, 0xf6, 0xbf, 0x02, 0x8d, 0x20, 0x3e,
  0x0e, 0x4a, 0x05, 0xc0, 0x58, 0x7d, 0xd7, 0x3d, 0x23, 0xb9, 0x48, 0xbf,
  0x89, 0xe9, 0xce, 0xbf, 0xf6, 0x68, 0xa9, 0xbe, 0x2e, 0x15, 0xa6, 0xbe,
  0xbc, 0x5c, 0xc1, 0xbf, 0x0a, 0x7f, 0x27, 0xbf, 0x08, 0x50, 0x67, 0xbd,
  0x14, 0xd7, 0x22, 0xc0, 0x90, 0x7d, 0x40, 0x3d, 0xfd, 0xda, 0xfe, 0xbe,
  0x18, 0x10, 0x13, 0x3c, 0x64, 0x6e, 0x6e, 0xbf, 0xa9, 0xc1, 0xfb, 0xbf,
  0x8d, 0xb5, 0x0f, 0x3c, 0xc0, 0x5f, 0x73, 0xbf, 0x32, 0x79, 0x64, 0x3e,
  0x45, 0xaf, 0x2d, 0xbe, 0x85, 0x0b, 0xa1, 0x3e, 0x14, 0x83, 0xb2, 0x3d,
  0x51, 0x95, 0xa1, 0xbd, 0xa9, 0xad, 0xb3, 0xbe, 0xfa, 0xdb, 0x29, 0x3e,
  0xa8, 0x63, 0x94, 0xbf, 0xd3, 0x82, 0xf4, 0xbf, 0x8a, 0x22, 0x5a, 0x3e,
  0xb9, 0x44, 0xef, 0xbe, 0xaa, 0x5c, 0xa0, 0xbf, 0x00, 0x96, 0x19, 0x3c,
  0xbe, 0x3c, 0xda, 0xbf, 0x58, 0xc2, 0xa6, 0xbe, 0x0d, 0x33, 0x04, 0xc0,
  0x15, 0xc8, 0x4f, 0x3e, 0x84, 0xcd, 0xc0, 0xbe, 0xdd, 0xab, 0xa0, 0xbf,
  0x38, 0x91, 0x3f, 0xbe, 0xc5, 0xca, 0x38, 0xbe, 0x81, 0x09, 0x98, 0xbf,
  0xcc, 0xc2, 0x2f, 0xbe, 0xec, 0x4e, 0xc4, 0x3d, 0x7e, 0x2e, 0x0a, 0xc0,
  0x79, 0x5d, 0xca, 0x3c, 0xce, 0x00, 0xa2, 0xbe, 0x5b, 0xd7, 0x26, 0xbe,
  0x78, 0x2d, 0x7b, 0xbf, 0x09, 0x60, 0xf1, 0xbf, 0xef, 0xb2, 0x29, 0xbe,
  0xd7, 0xc6, 0xb6, 0xbf, 0x9a, 0xbc, 0x49, 0x3e, 0xfb, 0x34, 0x8f, 0x3e,
  0xd4, 0x42, 0xbb, 0xbd, 0x31, 0xbf, 0x8a, 0x3e, 0x7d, 0xed, 0x8e, 0x3e,
  0x76, 0xf1, 0xeb, 0xbd, 0x68, 0xc5, 0x98, 0x3d, 0xee, 0x6e, 0xcb, 0xbf,
  0x3a, 0x25, 0x11, 0xc0, 0x67, 0x1c, 0xab, 0x3e, 0xa6, 0xf3, 0x36, 0xbe,
  0xba, 0xb2, 0xce, 0xbf, 0xd7, 0xac, 0x14, 0xbe, 0xde, 0xc3, 0xb5, 0xbf,
  0x88, 0x71, 0xad, 0x3d, 0x45, 0xa7, 0x00, 0xc0, 0x8e, 0xac, 0x9d, 0xbe,
  0x6e, 0x90, 0x21, 0xbe, 0x7c, 0x81, 0xbe, 0xbf, 0xe6, 0xe6, 0xb6, 0xbe,
  0xaa, 0xd0, 0x6c, 0x3e, 0x26, 0xf8, 0x86, 0xbf, 0x5a, 0x83, 0x2b, 0xbf,
  0x7e, 0x65, 0x29, 0x3e, 0xdc, 0xd4, 0x19, 0xc0, 0x69, 0x51, 0xca, 0x3e,
  0xa9, 0x81, 0x7d, 0x3f, 0xbd, 0x33, 0x45, 0x3f, 0x47, 0xcd, 0x32, 0x3f,
  0xe3, 0x68, 0x1a, 0x40, 0xfa, 0x2e, 0xdf, 0x3c, 0x33, 0xea, 0x97, 0x3f,
  0x54, 0x5d, 0xa5, 0xbd, 0x96, 0x58, 0x20, 0xbe, 0xf8, 0x73, 0x00, 0xbe,
  0x35, 0x01, 0xb2, 0x3e, 0x2b, 0xa2, 0x35, 0x3e, 0x38, 0x75, 0x27, 0x3d,
  0xe5, 0x8f, 0x9a, 0xbe, 0xf5, 0x0f, 0xd8, 0x3f, 0xdb, 0xb7, 0x25, 0x40,
  0xc2, 0x60, 0x4f, 0x3e, 0x7f, 0xc8, 0x37, 0x3f, 0x83, 0x0e, 0xff, 0x3f,
  0xef, 0x2e, 0x8f, 0xbe, 0xe5, 0x5a, 0xf8, 0x3f, 0x0d, 0x70, 0x60, 0xbe,
  0xe9, 0xde, 0x12, 0x40, 0x57, 0x83, 0xb9, 0x3d, 0x82, 0x6f, 0x7f, 0x3f,
  0x7c, 0xee, 0xc3, 0x3f, 0x35, 0x71, 0xcb, 0x3e, 0x77, 0x4a, 0x96, 0xbe,
  0x7f, 0xd2, 0xbe, 0x3f, 0x1e, 0x26, 0x27, 0x3f, 0x95, 0x5a, 0xb2, 0x3e,
  0x3e, 0x41, 0x29, 0x40, 0x01, 0x20, 0xc8, 0xbe, 0x06, 0x00, 0x1d, 0xbe,
  0xd8, 0x6a, 0xdd, 0xbd, 0x45, 0xe3, 0xa0, 0xbf, 0x4d, 0x98, 0x09, 0xc0,
  0x18, 0xd7, 0x69, 0x3d, 0xfd, 0x88, 0x9a, 0xbf, 0x30, 0x3b, 0xbd, 0xbc,
  0x00, 0x59, 0x57, 0xbb, 0x09, 0x3c, 0x46, 0xbd, 0x49, 0xa9, 0x4a, 0xbe,
  0x1b, 0x39, 0x58, 0xbd, 0xa0, 0x6b, 0x00, 0xbe, 0x08, 0xcf, 0xf8, 0x3d,
  0xc4, 0xeb, 0xbe, 0xbf, 0x5b, 0x39, 0x11, 0xc0, 0xe7, 0x3b, 0xa9, 0xbe,
  0x85, 0x7b, 0x9e, 0xbe, 0x64, 0x31, 0xe4, 0xbf, 0x27, 0xde, 0xa0, 0x3e,
  0x08, 0x2e, 0xda, 0xbf, 0xd0, 0x06, 0x62, 0xbe, 0x90, 0x09, 0x03, 0xc0,
  0x07, 0x91, 0xb0, 0x3d, 0x24, 0x96, 0x27, 0xbf, 0xee, 0x51, 0x97, 0xbf,
  0x75, 0x35, 0xb5, 0xbe, 0x16, 0xdc, 0xfc, 0xbd, 0x3e, 0x31, 0xe7, 0xbf,
  0x08, 0xac, 0x36, 0xbf, 0xc8, 0x3e, 0x87, 0x3d, 0xc9, 0x6a, 0x12, 0xc0,
  0x07, 0x29, 0x69, 0x3e, 0x60, 0xa0, 0x22, 0x3f, 0x92, 0x2b, 0x17, 0x3f,
  0x56, 0x31, 0x6b, 0x3f, 0xc9, 0xd0, 0x10, 0x40, 0xf0, 0xd6, 0xd1, 0x3d,
  0x6c, 0xfd, 0xcd, 0x3f, 0xeb, 0xb4, 0x8e, 0x3e, 0x65, 0xd6, 0x81, 0x3e,
  0xfa, 0xd0, 0x82, 0xbe, 0x4e, 0x72, 0x53, 0xbe, 0x4a, 0xf4, 0x66, 0x3e,
  0x80, 0xf2, 0x29, 0x3c, 0x6d, 0xa4, 0xac, 0xbe, 0xdc, 0x96, 0xf0, 0x3f,
  0xe3, 0xd2, 0x3e, 0x40, 0xbc, 0x23, 0x41, 0xbe, 0xbf, 0xda, 0xe6, 0x3e,
  0x34, 0xa4, 0xc7, 0x3f, 0x30, 0xc9, 0x7c, 0x3d, 0xfb, 0xff, 0xf3, 0x3f,
  0xf0, 0xde, 0xd3, 0xbd, 0xbb, 0x12, 0x1c, 0x40, 0x05, 0xaa, 0xb6, 0x3d,
  0x5d, 0x9e, 0x0d, 0x3f, 0xc3, 0x0c, 0xcd, 0x3f, 0xcb, 0x5d, 0x12, 0x3f,
  0x10, 0x10, 0x83, 0x3c, 0x23, 0x1d, 0xda, 0x3f, 0xfa, 0x9f, 0x27, 0x3f,
  0x1b, 0x49, 0x2b, 0xbe, 0x25, 0xee, 0x2d, 0x40, 0x21, 0xe5, 0x54, 0xbc,
  0xbe, 0x70, 0x70, 0xbf, 0xa1, 0x5a, 0x47, 0xbe, 0x96, 0xa3, 0x90, 0xbf,
  0x6b, 0xb9, 0x21, 0xc0, 0xef, 0x67, 0xc6, 0x3e, 0x53, 0x6f, 0xbf, 0xbf,
  0x00, 0xd2, 0xd9, 0x3a, 0x19, 0x5c, 0x7d, 0xbe, 0x9b, 0x27, 0x3c, 0xbe,
  0xc5, 0xa4, 0x2e, 0xbe, 0x4b, 0xeb, 0xd2, 0xbd, 0x8a, 0x1a, 0xa4, 0xbe,
  0x18, 0x17, 0xa9, 0x3d, 0xaa, 0xa0, 0xdc, 0xbf, 0x79, 0x70, 0x1a, 0xc0,
  0x48, 0xe9, 0x80, 0xbe, 0x94, 0x48, 0x0e, 0xbf, 0x55, 0x35, 0xef, 0xbf,
  0xf3, 0xcf, 0x0c, 0xbe, 0x92, 0xc8, 0x0b, 0xc0, 0x6a, 0xbd, 0x71, 0x3e,
  0x92, 0x4b, 0x21, 0xc0, 0x31, 0x7d, 0x91, 0x3e, 0xc9, 0x8e, 0xf6, 0xbe,
  0x41, 0xf3, 0xad, 0xbf, 0x2b, 0xbf, 0x07, 0xbf, 0x77, 0x10, 0x90, 0x3e,
  0x2e, 0x77, 0xaf, 0xbf, 0x27, 0xd0, 0x48, 0xbf, 0x24, 0xb9, 0xb3, 0xbd,
  0x3c, 0x0d, 0x1f, 0xc0, 0x77, 0xac, 0xc9, 0x3e, 0x42, 0xed, 0x4e, 0x3f,
  0x52, 0xc1, 0xe7, 0x3e, 0xb1, 0x84, 0xd9, 0x3f, 0x8d, 0x5c, 0x08, 0x40,
  0x39, 0xf0, 0xc8, 0x3b, 0x07, 0x7b, 0xc9, 0x3f, 0xa1, 0x0c, 0x89, 0x3e,
  0x15, 0xd7, 0x8b, 0x3e, 0xa4, 0x48, 0xfb, 0xbd, 0x80, 0x77, 0xd3, 0x3b,
  0x5f, 0x5f, 0xbe, 0x3c, 0x34, 0x61, 0x8c, 0x3d, 0xb7, 0x1a, 0x0f, 0xbe,
  0x54, 0x9f, 0x0c, 0x40, 0x5a, 0x13, 0x26, 0x40, 0xb8, 0xe6, 0xbc, 0xbd,
  0xff, 0x35, 0x0c, 0x3f, 0x8d, 0x21, 0x0a, 0x40, 0xb3, 0xe8, 0xad, 0x3e,
  0xea, 0x89, 0x13, 0x40, 0xd7, 0x1a, 0x8a, 0x3e, 0xf6, 0x2f, 0x22, 0x40,
  0x40, 0x13, 0xa7, 0xbc, 0x6b, 0x7a, 0x1f, 0x3f, 0x89, 0x27, 0xd1, 0x3f,
  0x63, 0x6d, 0xc3, 0x3e, 0xc0, 0x0a, 0x4c, 0xbe, 0x0f, 0xc0, 0xc1, 0x3f,
  0x9f, 0x1f, 0x05, 0x3f, 0x72, 0x9a, 0x3c, 0xbe, 0xd1, 0x22, 0x21, 0x40,
  0xe1, 0x99, 0xc8, 0xbe, 0xe0, 0xa4, 0x11, 0xbf, 0xb3, 0xb8, 0xe4, 0xbe,
  0xf8, 0xd6, 0x7d, 0xbf, 0xbf, 0xeb, 0x09, 0xc0, 0xf5, 0x61, 0xcd, 0x3e,
  0x30, 0x47, 0x91, 0xbf, 0xd3, 0xfc, 0xab, 0x3e, 0xd0, 0xc8, 0x4f, 0x3d,
  0x05, 0xac, 0x98, 0xbe, 0xec, 0xf1, 0xca, 0xbd, 0x12, 0x82, 0x8c, 0x3e,
  0x1e, 0xc5, 0x89, 0xbe, 0xf8, 0x26, 0x76, 0xbe, 0x14, 0x1b, 0xf5, 0xbf,
  0x13, 0x15, 0x2c, 0xc0, 0xb8, 0xb4, 0xa8, 0xbd, 0xc1, 0xcf, 0xbd, 0xbe,
  0x04, 0xa4, 0xf9, 0xbf, 0x3c, 0x8e, 0xd3, 0x3d, 0x2a, 0xa1, 0xe5, 0xbf,
  0xc0, 0x0b, 0xda, 0xbb, 0x7b, 0x54, 0x1b, 0xc0, 0xab, 0x07, 0xa1, 0x3e,
  0xb6, 0x20, 0x6a, 0xbf, 0xd1, 0x0b, 0xa7, 0xbf, 0xfb, 0x5d, 0xb1, 0xbe,
  0x90, 0x15, 0x8f, 0x3c, 0x9b, 0xf4, 0x9f, 0xbf, 0xe4, 0xd4, 0x19, 0xbf,
  0x99, 0x4c, 0x8e, 0x3e, 0x34, 0xf7, 0x10, 0xc0, 0x87, 0xfb, 0x08, 0xbe,
  0x6b, 0x95, 0x31, 0xbe, 0xc3, 0xe1, 0x98, 0xbe, 0x80, 0xd9, 0xbe, 0xbc,
  0x46, 0x34, 0x1b, 0x3d, 0x32, 0xbe, 0xc3, 0xbe, 0x47, 0xf8, 0xd8, 0xbd,
  0x5e, 0x37, 0xfe, 0xbd, 0x48, 0x40, 0x92, 0x3d, 0xe4, 0x7b, 0xab, 0x3d,
  0xd3, 0xd7, 0x17, 0xbe, 0xd7, 0xae, 0xaf, 0x3e, 0x52, 0xe2, 0x9b, 0xbe,
  0x6d, 0xca, 0x81, 0x3e, 0x76, 0x13, 0xed, 0x3d, 0x14, 0x37, 0x8c, 0xbe,
  0xc0, 0x58, 0x5a, 0x3c, 0xb1, 0xaa, 0x11, 0xbd, 0x81, 0x8d, 0x68, 0xbe,
  0xe2, 0xdf, 0x24, 0x3e, 0xbf, 0xdd, 0x2a, 0x3e, 0x30, 0xc2, 0x9e, 0x3c,
  0xab, 0xf2, 0x6f, 0xbe, 0xdb, 0x28, 0x25, 0xbe, 0xea, 0x19, 0x85, 0xbe,
  0x5d, 0x17, 0x0a, 0x3e, 0x76, 0x8f, 0x86, 0xbe, 0x38, 0x0d, 0x1c, 0xbd,
  0x1f, 0xd0, 0x6d, 0x3e, 0xb8, 0x38, 0xcd, 0x3d, 0xc8, 0x72, 0x6d, 0xbd,
  0x51, 0x8f, 0x99, 0xbe, 0x9f, 0x11, 0x9f, 0xbe, 0x37, 0xf6, 0xe9, 0xbe,
  0x4b, 0xcb, 0xc8, 0x3d, 0x80, 0xbe, 0xb5, 0xbf, 0x13, 0xde, 0x0c, 0xc0,
  0x27, 0x83, 0xbd, 0x3d, 0x2c, 0xd6, 0xb4, 0xbf, 0xbd, 0x9c, 0x88, 0xbe,
  0xa0, 0x81, 0xb2, 0xbe, 0x7f, 0xae, 0x9c, 0xbe, 0x80, 0xff, 0x11, 0xbc,
  0x71, 0x37, 0x82, 0xbe, 0x66, 0xbf, 0x31, 0x3e, 0xa8, 0x8b, 0xd2, 0x3d,
  0xa6, 0x77, 0xca, 0xbf, 0xc1, 0x70, 0x1a, 0xc0, 0xf4, 0x8d, 0x93, 0xbd,
  0x3c, 0xb1, 0xc0, 0xbe, 0xb0, 0x87, 0x00, 0xc0, 0x62, 0x62, 0x77, 0x3e,
  0x80, 0xe7, 0x19, 0xc0, 0x70, 0x26, 0x8b, 0x3c, 0x0b, 0xbb, 0x16, 0xc0,
  0x21, 0x13, 0xb1, 0x3d, 0xb9, 0x00, 0x3c, 0xbf, 0xb1, 0x91, 0xaf, 0xbf,
  0xb2, 0x9f, 0xa6, 0xbe, 0xa0, 0xdd, 0x51, 0xbd, 0xdd, 0xa1, 0xe2, 0xbf,
  0x39, 0x16, 0x15, 0xbf, 0x82, 0xc4, 0x19, 0x3e, 0x0f, 0xcf, 0x12, 0xc0,
  0xf0, 0xe9, 0x22, 0xbe, 0x2a, 0x65, 0xdc, 0xbe, 0xc6, 0xce, 0x84, 0xbe,
  0xa4, 0xcb, 0xb8, 0xbf, 0xb8, 0x30, 0x24, 0xc0, 0xe1, 0xec, 0x8b, 0x3e,
  0x38, 0x78, 0xbc, 0xbf, 0x1a, 0xc5, 0x58, 0x3e, 0x77, 0xdc, 0x99, 0xbe,
  0x07, 0xe1, 0x69, 0x3e, 0x81, 0xb8, 0xb4, 0xbe, 0x89, 0xd8, 0x2d, 0xbe,
  0xeb, 0xfa, 0x62, 0xbe, 0x40, 0xe3, 0x44, 0xbc, 0x2c, 0x91, 0xee, 0xbf,
  0x5d, 0xc8, 0x1c, 0xc0, 0xf0, 0x05, 0x83, 0xbc, 0xdf, 0x87, 0xda, 0xbe,
  0xac, 0xd6, 0xd9, 0xbf, 0xae, 0xfa, 0x33, 0x3e, 0xe8, 0xd1, 0x14, 0xc0,
  0xb7, 0x34, 0x82, 0x3e, 0xaa, 0xc1, 0x15, 0xc0, 0x35, 0x79, 0x4d, 0x3b,
  0x13, 0xf8, 0x71, 0xbf, 0x25, 0xcd, 0xcd, 0xbf, 0x05, 0x51, 0x13, 0xbf,
  0x60, 0x30, 0xca, 0xbc, 0xdf, 0x4f, 0xf9, 0xbf, 0x26, 0x21, 0xb6, 0xbe,
  0x76, 0x87, 0xe7, 0xbd, 0x19, 0x52, 0x36, 0xc0, 0x78, 0x7c, 0x4d, 0x3e,
  0xd8, 0xa1, 0xe6, 0x3e, 0x3d, 0x5d, 0x84, 0x3d, 0x28, 0xc7, 0xe2, 0x3f,
  0x8c, 0xc0, 0x26, 0x40, 0xc6, 0xdf, 0x52, 0xbc, 0xa1, 0x20, 0xad, 0x3f,
  0x6e, 0xa0, 0x49, 0xbe, 0x30, 0x84, 0xd2, 0xbd, 0x48, 0xc1, 0x46, 0xbe,
  0x22, 0x62, 0x74, 0x3e, 0x14, 0x31, 0xf8, 0xbd, 0x08, 0x40, 0x74, 0x3d,
  0xda, 0x3a, 0x24, 0x3e, 0x89, 0xa8, 0xe0, 0x3f, 0x42, 0xd0, 0x17, 0x40,
  0x29, 0xf5, 0xa4, 0x3e, 0x94, 0xc6, 0x50, 0x3f, 0x31, 0x44, 0xe4, 0x3f,
  0x93, 0x75, 0x75, 0xbe, 0x46, 0xfe, 0xff, 0x3f, 0xd8, 0x38, 0x81, 0xbd,
  0x22, 0x37, 0x19, 0x40, 0xbc, 0x33, 0xa1, 0x3d, 0x59, 0xb4, 0xf9, 0x3e,
  0x82, 0x7a, 0xcc, 0x3f, 0x35, 0x38, 0x16, 0x3f, 0x9a, 0x62, 0x30, 0xbe,
  0x07, 0xd8, 0xe9, 0x3f, 0xac, 0xe5, 0x6b, 0x3f, 0x9a, 0x86, 0x77, 0x3e,
  0xac, 0xa9, 0x36, 0x40, 0x00, 0x00, 0x06, 0x00, 0x08, 0x00, 0x04, 0x00,
  0x06, 0x00, 0x00, 0x00, 0x04, 0x00, 0x00, 0x00, 0x40, 0x00, 0x00, 0x00,
  0xa6, 0x50, 0x2a, 0x40, 0xed, 0x39, 0xb6, 0xbd, 0x06, 0x9c, 0x93, 0xbf,
  0x1f, 0xce, 0xfe, 0xbf, 0x03, 0xd7, 0xda, 0xbf, 0xe1, 0x46, 0x05, 0xc0,
  0xa2, 0xf5, 0x4a, 0x40, 0xc2, 0x92, 0xe3, 0xbf, 0x82, 0xbe, 0x4f, 0x40,
  0x1e, 0xe0, 0xa8, 0xbf, 0x9a, 0xc5, 0x44, 0x40, 0xa0, 0xfd, 0xa3, 0xbf,
  0x35, 0xa1, 0x90, 0xbe, 0x67, 0x5a, 0xcb, 0xbf, 0xa1, 0x2e, 0xcb, 0xbf,
  0xd8, 0xe3, 0x40, 0x40, 0x84, 0xfa, 0xff, 0xff, 0x88, 0xfa, 0xff, 0xff,
  0x0f, 0x00, 0x00, 0x00, 0x4d, 0x4c, 0x49, 0x52, 0x20, 0x43, 0x6f, 0x6e,
  0x76, 0x65, 0x72, 0x74, 0x65, 0x64, 0x2e, 0x00, 0x01, 0x00, 0x00, 0x00,
  0x14, 0x00, 0x00, 0x00, 0x00, 0x00, 0x0e, 0x00, 0x18, 0x00, 0x14, 0x00,
  0x10, 0x00, 0x0c, 0x00, 0x08, 0x00, 0x04, 0x00, 0x0e, 0x00, 0x00, 0x00,
  0x14, 0x00, 0x00, 0x00, 0x1c, 0x00, 0x00, 0x00, 0x08, 0x01, 0x00, 0x00,
  0x0c, 0x01, 0x00, 0x00, 0x10, 0x01, 0x00, 0x00, 0x04, 0x00, 0x00, 0x00,
  0x6d, 0x61, 0x69, 0x6e, 0x00, 0x00, 0x00, 0x00, 0x04, 0x00, 0x00, 0x00,
  0xb0, 0x00, 0x00, 0x00, 0x68, 0x00, 0x00, 0x00, 0x34, 0x00, 0x00, 0x00,
  0x10, 0x00, 0x00, 0x00, 0x00, 0x00, 0x0a, 0x00, 0x10, 0x00, 0x0c, 0x00,
  0x08, 0x00, 0x04, 0x00, 0x0a, 0x00, 0x00, 0x00, 0x0c, 0x00, 0x00, 0x00,
  0x10, 0x00, 0x00, 0x00, 0x01, 0x00, 0x00, 0x00, 0x01, 0x00, 0x00, 0x00,
  0x0a, 0x00, 0x00, 0x00, 0x01, 0x00, 0x00, 0x00, 0x09, 0x00, 0x00, 0x00,
  0x9a, 0xff, 0xff, 0xff, 0x10, 0x00, 0x00, 0x00, 0x00, 0x00, 0x00, 0x08,
  0x0c, 0x00, 0x00, 0x00, 0x10, 0x00, 0x00, 0x00, 0x30, 0xfb, 0xff, 0xff,
  0x01, 0x00, 0x00, 0x00, 0x09, 0x00, 0x00, 0x00, 0x03, 0x00, 0x00, 0x00,
  0x08, 0x00, 0x00, 0x00, 0x01, 0x00, 0x00, 0x00, 0x03, 0x00, 0x00, 0x00,
  0xca, 0xff, 0xff, 0xff, 0x10, 0x00, 0x00, 0x00, 0x00, 0x00, 0x00, 0x08,
  0x10, 0x00, 0x00, 0x00, 0x14, 0x00, 0x00, 0x00, 0xba, 0xff, 0xff, 0xff,
  0x00, 0x00, 0x00, 0x01, 0x01, 0x00, 0x00, 0x00, 0x08, 0x00, 0x00, 0x00,
  0x03, 0x00, 0x00, 0x00, 0x07, 0x00, 0x00, 0x00, 0x02, 0x00, 0x00, 0x00,
  0x04, 0x00, 0x00, 0x00, 0x00, 0x00, 0x0e, 0x00, 0x16, 0x00, 0x00, 0x00,
  0x10, 0x00, 0x0c, 0x00, 0x0b, 0x00, 0x04, 0x00, 0x0e, 0x00, 0x00, 0x00,
  0x18, 0x00, 0x00, 0x00, 0x00, 0x00, 0x00, 0x08, 0x18, 0x00, 0x00, 0x00,
  0x1c, 0x00, 0x00, 0x00, 0x00, 0x00, 0x06, 0x00, 0x08, 0x00, 0x07, 0x00,
  0x06, 0x00, 0x00, 0x00, 0x00, 0x00, 0x00, 0x01, 0x01, 0x00, 0x00, 0x00,
  0x07, 0x00, 0x00, 0x00, 0x03, 0x00, 0x00, 0x00, 0x00, 0x00, 0x00, 0x00,
  0x06, 0x00, 0x00, 0x00, 0x05, 0x00, 0x00, 0x00, 0x01, 0x00, 0x00, 0x00,
  0x0a, 0x00, 0x00, 0x00, 0x01, 0x00, 0x00, 0x00, 0x00, 0x00, 0x00, 0x00,
  0x0b, 0x00, 0x00, 0x00, 0xf8, 0x03, 0x00, 0x00, 0xa0, 0x03, 0x00, 0x00,
  0x48, 0x03, 0x00, 0x00, 0x0c, 0x03, 0x00, 0x00, 0xb0, 0x02, 0x00, 0x00,
  0x58, 0x02, 0x00, 0x00, 0x0c, 0x02, 0x00, 0x00, 0x78, 0x01, 0x00, 0x00,
  0xdc, 0x00, 0x00, 0x00, 0x60, 0x00, 0x00, 0x00, 0x04, 0x00, 0x00, 0x00,
  0x4a, 0xfc, 0xff, 0xff, 0x00, 0x00, 0x00, 0x01, 0x14, 0x00, 0x00, 0x00,
  0x1c, 0x00, 0x00, 0x00, 0x1c, 0x00, 0x00, 0x00, 0x0b, 0x00, 0x00, 0x00,
  0x34, 0x00, 0x00, 0x00, 0x02, 0x00, 0x00, 0x00, 0xff, 0xff, 0xff, 0xff,
  0x01, 0x00, 0x00, 0x00, 0x34, 0xfc, 0xff, 0xff, 0x1b, 0x00, 0x00, 0x00,
  0x53, 0x74, 0x61, 0x74, 0x65, 0x66, 0x75, 0x6c, 0x50, 0x61, 0x72, 0x74,
  0x69, 0x74, 0x69, 0x6f, 0x6e, 0x65, 0x64, 0x43, 0x61, 0x6c, 0x6c, 0x5f,
  0x31, 0x3a, 0x30, 0x00, 0x02, 0x00, 0x00, 0x00, 0x01, 0x00, 0x00, 0x00,
  0x01, 0x00, 0x00, 0x00, 0xa2, 0xfc, 0xff, 0xff, 0x00, 0x00, 0x00, 0x01,
  0x14, 0x00, 0x00, 0x00, 0x1c, 0x00, 0x00, 0x00, 0x1c, 0x00, 0x00, 0x00,
  0x0a, 0x00, 0x00, 0x00, 0x54, 0x00, 0x00, 0x00, 0x02, 0x00, 0x00, 0x00,
  0xff, 0xff, 0xff, 0xff, 0x01, 0x00, 0x00, 0x00, 0x8c, 0xfc, 0xff, 0xff,
  0x38, 0x00, 0x00, 0x00, 0x73, 0x65, 0x71, 0x75, 0x65, 0x6e, 0x74, 0x69,
  0x61, 0x6c, 0x5f, 0x31, 0x2f, 0x64, 0x65, 0x6e, 0x73, 0x65, 0x5f, 0x32,
  0x5f, 0x31, 0x2f, 0x4d, 0x61, 0x74, 0x4d, 0x75, 0x6c, 0x3b, 0x73, 0x65,
  0x71, 0x75, 0x65, 0x6e, 0x74, 0x69, 0x61, 0x6c, 0x5f, 0x31, 0x2f, 0x64,
  0x65, 0x6e, 0x73, 0x65, 0x5f, 0x32, 0x5f, 0x31, 0x2f, 0x41, 0x64, 0x64,
  0x00, 0x00, 0x00, 0x00, 0x02, 0x00, 0x00, 0x00, 0x01, 0x00, 0x00, 0x00,
  0x01, 0x00, 0x00, 0x00, 0x1a, 0xfd, 0xff, 0xff, 0x00, 0x00, 0x00, 0x01,
  0x14, 0x00, 0x00, 0x00, 0x1c, 0x00, 0x00, 0x00, 0x1c, 0x00, 0x00, 0x00,
  0x09, 0x00, 0x00, 0x00, 0x74, 0x00, 0x00, 0x00, 0x02, 0x00, 0x00, 0x00,
  0xff, 0xff, 0xff, 0xff, 0x10, 0x00, 0x00, 0x00, 0x04, 0xfd, 0xff, 0xff,
  0x58, 0x00, 0x00, 0x00, 0x73, 0x65, 0x71, 0x75, 0x65, 0x6e, 0x74, 0x69,
  0x61, 0x6c, 0x5f, 0x31, 0x2f, 0x64, 0x65, 0x6e, 0x73, 0x65, 0x5f, 0x31,
  0x5f, 0x32, 0x2f, 0x4d, 0x61, 0x74, 0x4d, 0x75, 0x6c, 0x3b, 0x73, 0x65,
  0x71, 0x75, 0x65, 0x6e, 0x74, 0x69, 0x61, 0x6c, 0x5f, 0x31, 0x2f, 0x64,
  0x65, 0x6e, 0x73, 0x65, 0x5f, 0x31, 0x5f, 0x32, 0x2f, 0x52, 0x65, 0x6c,
  0x75, 0x3b, 0x73, 0x65, 0x71, 0x75, 0x65, 0x6e, 0x74, 0x69, 0x61, 0x6c,
  0x5f, 0x31, 0x2f, 0x64, 0x65, 0x6e, 0x73, 0x65, 0x5f, 0x31, 0x5f, 0x32,
  0x2f, 0x42, 0x69, 0x61, 0x73, 0x41, 0x64, 0x64, 0x00, 0x00, 0x00, 0x00,
  0x02, 0x00, 0x00, 0x00, 0x01, 0x00, 0x00, 0x00, 0x10, 0x00, 0x00, 0x00,
  0xb2, 0xfd, 0xff, 0xff, 0x00, 0x00, 0x00, 0x01, 0x14, 0x00, 0x00, 0x00,
  0x1c, 0x00, 0x00, 0x00, 0x1c, 0x00, 0x00, 0x00, 0x08, 0x00, 0x00, 0x00,
  0x6c, 0x00, 0x00, 0x00, 0x02, 0x00, 0x00, 0x00, 0xff, 0xff, 0xff, 0xff,
  0x20, 0x00, 0x00, 0x00, 0x9c, 0xfd, 0xff, 0xff, 0x52, 0x00, 0x00, 0x00,
  0x73, 0x65, 0x71, 0x75, 0x65, 0x6e, 0x74, 0x69, 0x61, 0x6c, 0x5f, 0x31,
  0x2f, 0x64, 0x65, 0x6e, 0x73, 0x65, 0x5f, 0x31, 0x2f, 0x4d, 0x61, 0x74,
  0x4d, 0x75, 0x6c, 0x3b, 0x73, 0x65, 0x71, 0x75, 0x65, 0x6e, 0x74, 0x69,
  0x61, 0x6c, 0x5f, 0x31, 0x2f, 0x64, 0x65, 0x6e, 0x73, 0x65, 0x5f, 0x31,
  0x2f, 0x52, 0x65, 0x6c, 0x75, 0x3b, 0x73, 0x65, 0x71, 0x75, 0x65, 0x6e,
  0x74, 0x69, 0x61, 0x6c, 0x5f, 0x31, 0x2f, 0x64, 0x65, 0x6e, 0x73, 0x65,
  0x5f, 0x31, 0x2f, 0x42, 0x69, 0x61, 0x73, 0x41, 0x64, 0x64, 0x00, 0x00,
  0x02, 0x00, 0x00, 0x00, 0x01, 0x00, 0x00, 0x00, 0x20, 0x00, 0x00, 0x00,
  0x96, 0xfe, 0xff, 0xff, 0x00, 0x00, 0x00, 0x01, 0x10, 0x00, 0x00, 0x00,
  0x10, 0x00, 0x00, 0x00, 0x07, 0x00, 0x00, 0x00, 0x28, 0x00, 0x00, 0x00,
  0x1c, 0xfe, 0xff, 0xff, 0x1b, 0x00, 0x00, 0x00, 0x73, 0x65, 0x71, 0x75,
  0x65, 0x6e, 0x74, 0x69, 0x61, 0x6c, 0x5f, 0x31, 0x2f, 0x64, 0x65, 0x6e,
  0x73, 0x65, 0x5f, 0x31, 0x2f, 0x4d, 0x61, 0x74, 0x4d, 0x75, 0x6c, 0x00,
  0x02, 0x00, 0x00, 0x00, 0x20, 0x00, 0x00, 0x00, 0x02, 0x00, 0x00, 0x00,
  0xde, 0xfe, 0xff, 0xff, 0x00, 0x00, 0x00, 0x01, 0x10, 0x00, 0x00, 0x00,
  0x10, 0x00, 0x00, 0x00, 0x06, 0x00, 0x00, 0x00, 0x38, 0x00, 0x00, 0x00,
  0x64, 0xfe, 0xff, 0xff, 0x2b, 0x00, 0x00, 0x00, 0x73, 0x65, 0x71, 0x75,
  0x65, 0x6e, 0x74, 0x69, 0x61, 0x6c, 0x5f, 0x31, 0x2f, 0x64, 0x65, 0x6e,
  0x73, 0x65, 0x5f, 0x31, 0x2f, 0x42, 0x69, 0x61, 0x73, 0x41, 0x64, 0x64,
  0x2f, 0x52, 0x65, 0x61, 0x64, 0x56, 0x61, 0x72, 0x69, 0x61, 0x62, 0x6c,
  0x65, 0x4f, 0x70, 0x00, 0x01, 0x00, 0x00, 0x00, 0x20, 0x00, 0x00, 0x00,
  0x32, 0xff, 0xff, 0xff, 0x00, 0x00, 0x00, 0x01, 0x10, 0x00, 0x00, 0x00,
  0x10, 0x00, 0x00, 0x00, 0x05, 0x00, 0x00, 0x00, 0x3c, 0x00, 0x00, 0x00,
  0xb8, 0xfe, 0xff, 0xff, 0x2d, 0x00, 0x00, 0x00, 0x73, 0x65, 0x71, 0x75,
  0x65, 0x6e, 0x74, 0x69, 0x61, 0x6c, 0x5f, 0x31, 0x2f, 0x64, 0x65, 0x6e,
  0x73, 0x65, 0x5f, 0x31, 0x5f, 0x32, 0x2f, 0x42, 0x69, 0x61, 0x73, 0x41,
  0x64, 0x64, 0x2f, 0x52, 0x65, 0x61, 0x64, 0x56, 0x61, 0x72, 0x69, 0x61,
  0x62, 0x6c, 0x65, 0x4f, 0x70, 0x00, 0x00, 0x00, 0x01, 0x00, 0x00, 0x00,
  0x10, 0x00, 0x00, 0x00, 0x8a, 0xff, 0xff, 0xff, 0x00, 0x00, 0x00, 0x01,
  0x10, 0x00, 0x00, 0x00, 0x10, 0x00, 0x00, 0x00, 0x04, 0x00, 0x00, 0x00,
  0x1c, 0x00, 0x00, 0x00, 0x10, 0xff, 0xff, 0xff, 0x0f, 0x00, 0x00, 0x00,
  0x61, 0x72, 0x69, 0x74, 0x68, 0x2e, 0x63, 0x6f, 0x6e, 0x73, 0x74, 0x61,
  0x6e, 0x74, 0x32, 0x00, 0x01, 0x00, 0x00, 0x00, 0x01, 0x00, 0x00, 0x00,
  0xc2, 0xff, 0xff, 0xff, 0x00, 0x00, 0x00, 0x01, 0x10, 0x00, 0x00, 0x00,
  0x10, 0x00, 0x00, 0x00, 0x03, 0x00, 0x00, 0x00, 0x1c, 0x00, 0x00, 0x00,
  0x48, 0xff, 0xff, 0xff, 0x0f, 0x00, 0x00, 0x00, 0x61, 0x72, 0x69, 0x74,
  0x68, 0x2e, 0x63, 0x6f, 0x6e, 0x73, 0x74, 0x61, 0x6e, 0x74, 0x31, 0x00,
  0x02, 0x00, 0x00, 0x00, 0x10, 0x00, 0x00, 0x00, 0x20, 0x00, 0x00, 0x00,
  0x00, 0x00, 0x16, 0x00, 0x18, 0x00, 0x14, 0x00, 0x00, 0x00, 0x10, 0x00,
  0x0c, 0x00, 0x08, 0x00, 0x00, 0x00, 0x00, 0x00, 0x00, 0x00, 0x07, 0x00,
  0x16, 0x00, 0x00, 0x00, 0x00, 0x00, 0x00, 0x01, 0x10, 0x00, 0x00, 0x00,
  0x10, 0x00, 0x00, 0x00, 0x02, 0x00, 0x00, 0x00, 0x1c, 0x00, 0x00, 0x00,
  0x9c, 0xff, 0xff, 0xff, 0x0e, 0x00, 0x00, 0x00, 0x61, 0x72, 0x69, 0x74,
  0x68, 0x2e, 0x63, 0x6f, 0x6e, 0x73, 0x74, 0x61, 0x6e, 0x74, 0x00, 0x00,
  0x02, 0x00, 0x00, 0x00, 0x01, 0x00, 0x00, 0x00, 0x10, 0x00, 0x00, 0x00,
  0x00, 0x00, 0x16, 0x00, 0x1c, 0x00, 0x18, 0x00, 0x00, 0x00, 0x14, 0x00,
  0x10, 0x00, 0x0c, 0x00, 0x00, 0x00, 0x00, 0x00, 0x08, 0x00, 0x07, 0x00,
  0x16, 0x00, 0x00, 0x00, 0x00, 0x00, 0x00, 0x01, 0x14, 0x00, 0x00, 0x00,
  0x20, 0x00, 0x00, 0x00, 0x20, 0x00, 0x00, 0x00, 0x01, 0x00, 0x00, 0x00,
  0x3c, 0x00, 0x00, 0x00, 0x02, 0x00, 0x00, 0x00, 0xff, 0xff, 0xff, 0xff,
  0x02, 0x00, 0x00, 0x00, 0x04, 0x00, 0x04, 0x00, 0x04, 0x00, 0x00, 0x00,
  0x1e, 0x00, 0x00, 0x00, 0x73, 0x65, 0x72, 0x76, 0x69, 0x6e, 0x67, 0x5f,
  0x64, 0x65, 0x66, 0x61, 0x75, 0x6c, 0x74, 0x5f, 0x6b, 0x65, 0x72, 0x61,
  0x73, 0x5f, 0x74, 0x65, 0x6e, 0x73, 0x6f, 0x72, 0x3a, 0x30, 0x00, 0x00,
  0x02, 0x00, 0x00, 0x00, 0x01, 0x00, 0x00, 0x00, 0x02, 0x00, 0x00, 0x00,
  0x02, 0x00, 0x00, 0x00, 0x20, 0x00, 0x00, 0x00, 0x04, 0x00, 0x00, 0x00,
  0xf4, 0xff, 0xff, 0xff, 0x0e, 0x00, 0x00, 0x00, 0x00, 0x00, 0x00, 0x0e,
  0x0c, 0x00, 0x0c, 0x00, 0x0b, 0x00, 0x00, 0x00, 0x00, 0x00, 0x04, 0x00,
  0x0c, 0x00, 0x00, 0x00, 0x09, 0x00, 0x00, 0x00, 0x00, 0x00, 0x00, 0x09,
};
const unsigned int model_tflite_len = 4632;
